/**
  ******************************************************************************
  * @file    network_data_params.c
  * @author  AST Embedded Analytics Research Platform
  * @date    2025-10-07T18:39:39-0600
  * @brief   AI Tool Automatic Code Generator for Embedded NN computing
  ******************************************************************************
  * Copyright (c) 2025 STMicroelectronics.
  * All rights reserved.
  *
  * This software is licensed under terms that can be found in the LICENSE file
  * in the root directory of this software component.
  * If no LICENSE file comes with this software, it is provided AS-IS.
  ******************************************************************************
  */

#include "network_data_params.h"


/**  Activations Section  ****************************************************/
ai_handle g_network_activations_table[1 + 2] = {
  AI_HANDLE_PTR(AI_MAGIC_MARKER),
  AI_HANDLE_PTR(NULL),
  AI_HANDLE_PTR(AI_MAGIC_MARKER),
};




/**  Weights Section  ********************************************************/
AI_ALIGNED(32)
const ai_u64 s_network_weights_array_u64[807] = {
  0x3f22365cbeef73f5U, 0x3dba001e3e8e5ab5U, 0xbd7f72483e4cd316U, 0x3e4a3d51bf19754eU,
  0x3e91ea29be89fd56U, 0xbe62e6583e4d2d45U, 0x3dc30a743e4cb4a8U, 0xbf12074c3e087536U,
  0xbf4c579fbe9961ecU, 0xbe88e39abe674eb3U, 0x3ea68f4cbe089489U, 0xbd3805123ee4a9bdU,
  0x3e97b63cbeac0d5eU, 0x3cd703663e1d60fdU, 0xbe4431c5becd39f7U, 0xbe6b31f73e948647U,
  0x3d3001a9bdacf006U, 0x3e73efe63d84330dU, 0x3f22921cbd04ebfeU, 0xbeaca2073e20b00cU,
  0x3e36f4d83e892aedU, 0xbdedd4ccbdb8b88dU, 0xbda69d19bd1d3227U, 0x3dc3b52e3e9e48a5U,
  0xbebb595ebf1e4a84U, 0xbe1ed8c33eecadd6U, 0x3e91d3e4bf4d715eU, 0xbd32afdfbe047d4cU,
  0x3d4f1d163eff0135U, 0xbea0b336be7a0f05U, 0xbd38615b3dba95f6U, 0xbee642003e224e2fU,
  0xbe3f5979bf0cab61U, 0x3f2a1897bebec177U, 0xbda4b1b6bda410ffU, 0xbd996d61bda4794cU,
  0x3e3e9ea33d8d9362U, 0xbea5bbc03e12880aU, 0xbedb49e53b695f1aU, 0xbf183c7ebf2a9ce3U,
  0x3f011e383e64ae77U, 0x3eb306bebe2b74f0U, 0xbe3728f6be97f32aU, 0xbdbf63833d9a469fU,
  0xbecb60e2be9f3b5cU, 0xbefdf5653e69ac7fU, 0x3d37657c3d0ff299U, 0xbde39b59be34766eU,
  0x3ecac7863e511c7eU, 0xbf1c8664beddc650U, 0xbe98b18d3e1fee16U, 0x3e833361bd9970ffU,
  0x3bb08ca0bc990fb6U, 0x3f3e044f3ecf9476U, 0x3f0e6fae3e597eb1U, 0xbf19b997be1cef80U,
  0xbee11989bf830122U, 0xbdf7498e3f039cddU, 0xbe934a0c3e107a26U, 0xbc28ae4dbd74fd5dU,
  0x3ed37593bed31984U, 0x3e8292f3be5af65eU, 0xbed5e106bdd085b0U, 0xbf7a74073d0270deU,
  0x3e95af82bea991e3U, 0xbe7ff26d3dda1773U, 0x3e7da9e5be0496d2U, 0xbb874adfbe22c30bU,
  0xbd9f5524bdd099ddU, 0x3e3a6ae93f2a0140U, 0xbe325658bce78bc4U, 0xbd903c3a3f1f481aU,
  0x3e0115473ee1ecebU, 0xbe7863a0bee7f708U, 0x3e975d0cbd87c7a6U, 0x3d3a70403e96f38fU,
  0x3d2f09e03dc1241cU, 0xbe37fcc83e4887caU, 0x3db303603d6efce8U, 0x3e0ece52be286df4U,
  0xba8fc400bddcff84U, 0xbe4d0392bcdf1940U, 0x3cbb1ab0be72b362U, 0x3e92f0a3ba665000U,
  0xbe2e91683d2b2fe0U, 0xbdb901acbdb3d244U, 0xbe0eefd73e4d2986U, 0xbe8fdf8b3e1737d0U,
  0xbe130263bd961dfaU, 0xbdee0504be53a64eU, 0xbdb43ce0be80c8f8U, 0x3e7ba26abe41c933U,
  0x3d1cab68bea0e7cdU, 0xbcadab40be8c30caU, 0x3e9dde01bd89302eU, 0xbe884524be3c4bbfU,
  0xbe52b2dfbe7f4d80U, 0xbab7bd00be8b06a0U, 0xbe7d9328be6afe20U, 0xbe25f7b63ca98a20U,
  0x3e228abc3e5704b2U, 0xbe6b9844be1f8825U, 0xbd8354fcbe7e0b4eU, 0x3df620f8be247ccfU,
  0xbdc5b3b4be2f0613U, 0xbe95e5b23f2a1871U, 0x3eafb3833d14c016U, 0xbe71a91e3bf70e0bU,
  0x3f04157f3e8f20a9U, 0xbed94b793d66242eU, 0xbe6455e53d501284U, 0x3ddea3243e51c3d1U,
  0x3f0542a5bd8e10cbU, 0x3ecf5d283e2b3b4bU, 0x3eb519dfbe4417f7U, 0xbe65d730be57ac51U,
  0xbe5c0645bf6e0aeeU, 0x3eb62dee3e289d37U, 0xbbfafed73e2fcc7dU, 0xbcf1d42a3dcceca4U,
  0x3e4bce2ebee1096cU, 0x3dc5c5ee3e863162U, 0x3e25cf3ebe4c2c3dU, 0xbc63db9fbddd5f78U,
  0x3e0eae393e42953dU, 0xbe250e423d63988cU, 0x3d20de9c3e8e1b5dU, 0xbefc7afd3d10ad7aU,
  0xbf3ebd88bef27e9aU, 0xbefdb394bf37afecU, 0x3ebd505a3e83d954U, 0x3c18bd853f2c4c05U,
  0x3e7d5df2bf2f3768U, 0xbe226b3fbd10f797U, 0xbf08f75abeaea9b2U, 0x3dbd0458bd33fb90U,
  0xbe8c75d3be8d838eU, 0xbe86c1b9be0c05beU, 0xbe408c8e3d591330U, 0xbe2ccfc53dd2d5c0U,
  0xbd4776283ceafe60U, 0xbe9001d3be8e7890U, 0x3da5c73cbdba01e4U, 0x3e2a7df43cfa2840U,
  0x3e5eb0a2be511c20U, 0xbde41becbe420215U, 0x3e4da3223db12bf4U, 0x3d72e650bd690458U,
  0xbe8bea5ebd2543b8U, 0x3da327683e1c698cU, 0x3d8a104cbe350f0cU, 0x3e029efebd1decb0U,
  0x3e2a3c9c3e08eafcU, 0x3dfec4fc3e5433d6U, 0xbdbc8c043c861a00U, 0x3de260f8be332e61U,
  0xbe193b02bdbb5136U, 0x3dbcfe2c3dff0a90U, 0x3e8e1ca9bd8f3452U, 0xbe450e0ebde70508U,
  0xbe53f2cc3c10a8c0U, 0xbe69be1abe426a47U, 0x3b7adf803e8734ebU, 0xbe4999bc39c87400U,
  0xbe5d94203d8e8a64U, 0x3e56ace1bedc9accU, 0xbd6fc89cbd3d2373U, 0x3dacdf163c0f6160U,
  0xbed337a4bdf51e45U, 0x3ef783b1be2e0b7dU, 0xbe3394f33de06e01U, 0xbde30a4a3e584b12U,
  0xbecb25303d9a22f8U, 0xbf4444cdbe3356acU, 0xbe532f483ddb3a0dU, 0x3e4155ebbe4d8808U,
  0x3e4a96953f53acc8U, 0xbcb1cac7bd056ebcU, 0xbe49056bbd8c19d7U, 0x3d755f21bea1de57U,
  0x3e8d73cfbd0a2277U, 0xbec6232c3e9a4682U, 0x3ef82ac0be72c613U, 0x3e96186f3df453f3U,
  0x3e6d18623c700b32U, 0x3e84f4a53e23e2d8U, 0x3e21cd28be693044U, 0xbecdff12bd38b7c2U,
  0xbf2518b0be6ab3fcU, 0xbf565163bf465a7fU, 0x3ee491ed3e201c61U, 0x3e096edfbc6322c3U,
  0x3d245c16bf2f1110U, 0xbdf83d4d3e2156eeU, 0xbeb0fd6ebecbf109U, 0x3e9074a93d0a0108U,
  0xbe0ccd7bbe22d802U, 0x3dbae2c4bd9adacaU, 0xbdc0734c3e873ed5U, 0xbc99f9a03e97075fU,
  0x3de88044be8cecbcU, 0xbd76acf0be4bca08U, 0x3e4565123d832ffcU, 0x3e1472563bab8f80U,
  0xbe8f6ee0bd7effd8U, 0xbdaa577ebe07d6dbU, 0x3e232faabe33004fU, 0xbe839e30bddddbe4U,
  0xbe922e3f3e3c1f50U, 0xbe59ea4bbe850143U, 0x3ed59925bec073e1U, 0x3dc0d1bdbe7a1634U,
  0xbe32ce843db87966U, 0xbe703decbe6ee8e6U, 0x3f18cabebdbf2051U, 0x3e14e3de3e887078U,
  0xbbbb8494bde3c81fU, 0xbe5f91d5bde2e968U, 0xbf2f09c1bea4973cU, 0x3e0b090b3e78d30dU,
  0xbe0439bd3e24851cU, 0xbe2f63c93f2eef53U, 0xbdc14b6ebe932929U, 0x3c9f25eabe94b171U,
  0x3edfafe83e405f40U, 0x3db2a8e43e964aabU, 0xbe67f616bcd7fa43U, 0x3db4380ebe721f6fU,
  0x3ef808483da524d5U, 0xbe96397d3eb3c8c5U, 0xbc4fdadabe5d90fcU, 0x3e3e1b513e4d9f3eU,
  0xbe16575e3dccb01aU, 0x3dac0638be7d7998U, 0xbf12a965bf539281U, 0x3e9879d93f01d024U,
  0x3e37f53fbe54bbdfU, 0xbe586d96bf0a9912U, 0xbee300a03d1a1226U, 0xbf2e6a86be4be21aU,
  0x3ea566873d14f4a9U, 0x3e0f2b6fbc00126bU, 0xbd126189bdc36475U, 0xbf0bcce33e19fc14U,
  0x3e8e973e3e884db0U, 0x3d91890bbe3f76f1U, 0xbd99a6133e2dc02cU, 0x3e7cfcd1be144c6aU,
  0xbd7501b53e7aa308U, 0x3e1cfa303f529d4fU, 0xbddffd79be19b477U, 0xbeb4d8a93f2079f6U,
  0x3c8727e33c821426U, 0x3e8aa9c4be9f097aU, 0x3ec1362b3e93738eU, 0x3e0148093dc3aca5U,
  0x3ed3b2babebd0ae6U, 0xbe0706b93e9a6dd9U, 0xbf0c04113d30e7e1U, 0x3f470e633d5a605aU,
  0x3e31644fbe8771f6U, 0xbe8b8c8a3e2cc3d2U, 0x3ec64d6c3e0677faU, 0x3e50b14f3ec1b665U,
  0x3ef586b13f585b8aU, 0x3db45b7fbe9e2397U, 0xbeaff947bc8441e4U, 0xbe1396e63e8c1213U,
  0x3c70c5f4bea0f126U, 0x3f07e6703ed07984U, 0x3e60db9c3e133712U, 0xbe27c1f4be6f3631U,
  0x3e03ae8e3e84a0f8U, 0xbde5d3c1bd0157a7U, 0x3e5fcbb33e8060b3U, 0x3c599b073e665926U,
  0xbe3a0b283e7927b2U, 0x3e341f6fbe85b1abU, 0xbdae53edbe97f0d0U, 0xbe950c7fbd45de14U,
  0x3cbfee5b3bf089e9U, 0xbe418de1be2241d3U, 0xbd82f189bd334e20U, 0xbe4fab6cbe27d6e7U,
  0x3e7ef866be8709dcU, 0x3e9a2697bf1265dcU, 0x3e39f72dbe587038U, 0xbf068ee03ea3d002U,
  0xbf2b57f9bded60eeU, 0x3f408311bd3cb473U, 0xbce9994cbe062a87U, 0x3e6626d03df3c4f2U,
  0xbdc91194bdba1cacU, 0xbee77509be8697c1U, 0x3e846f233f2b77e8U, 0xbe75c8cbbea7b52dU,
  0x3d9571ff3f506805U, 0xbdfd16823ecb1667U, 0x3de8c87ebe827c3dU, 0x3eca9f103e422cb7U,
  0x3eb7fcdabedb4ec2U, 0x3ea98e2e3da23b5fU, 0x3e08b0f63e8a52c5U, 0xbf4da29f3e5600d8U,
  0x3f07bdc23e05e9c7U, 0xbd673b443e2cec24U, 0xbd08cf16be71bcf1U, 0xbd8157bd3b1786f2U,
  0xbe3529213e92d115U, 0x3dbc7ac33f56ff69U, 0xbc9e922cbdcabf66U, 0xbe89f2203f3ba39fU,
  0x3dd1c24e3e93ce77U, 0x3eb0a34fbefd7bbeU, 0x3ea94a3f3eb68e62U, 0x3c35f97e3d68d236U,
  0xbd9ab2efbd3d335fU, 0xbeb7ebc13ec953d2U, 0xbf2a45b33e6e494dU, 0x3f437cc53e21d34bU,
  0x3e33e48cbe9da7d9U, 0x3d351389be03b3ebU, 0x3c3dd74b3db29030U, 0x3e5106613e54583fU,
  0x3f18aa693f4fc590U, 0x3e296e613d092de3U, 0x3dbb525b3f1eaee1U, 0xbdada1243e237bb5U,
  0xbdac6a6ebefe6040U, 0x3eca832d3d5cb5f6U, 0x3f22d0c2bf1578dfU, 0x3e945f623b875a84U,
  0xbeb6efb83ec393aeU, 0xbe0963acbeef9967U, 0x3f30ad58be8f2223U, 0x3dda0eb1bd9de393U,
  0x3bbccbf5bcb6d9b6U, 0xbe9cb61f3d138c8cU, 0xbe5f944f3e35d3f5U, 0x3ed9dbec3ed3a169U,
  0xbf1792aebea77b27U, 0xbee2fda63ef2d162U, 0xbb6a4a303e84d713U, 0xbd5fa5293d0f5965U,
  0x3f18a7c2bd1ef41eU, 0xbe208c943d8f79e8U, 0xbd9ceae73dfd37b7U, 0xbd7196f5be67d3e7U,
  0x3f4be9ac3e12a3c7U, 0xbf1feed73e7d9f9dU, 0x3d0ffca23e33acceU, 0x3e3ea5aabea3c3ccU,
  0xbdc525ca3e80dca2U, 0x3e6c19f6be7e4ea2U, 0xbee02387bf3cb7baU, 0xbd219a5d3ea461c1U,
  0x3e5f1d16be6276e4U, 0x3e5bfc23beb91c83U, 0xbec79d9b3f1456beU, 0xbeb760cbbecb9ffeU,
  0x3ea4fa27be31375cU, 0x3ead8e2ebe4556b7U, 0xbeab2202bd30a68aU, 0xbf48da133c4becaaU,
  0x3d35c9923e93e185U, 0x3d2ed185beaac64eU, 0x3e97ad50be6722c0U, 0x3ef3faf9bc5ce5c1U,
  0x3da2c4b63ec5dd46U, 0x3e89c5cb3f15cc78U, 0x3d515325bea24379U, 0xbde10f6f3eeccf74U,
  0xbdda254f3f03d686U, 0xbc9aa297bd33f637U, 0x3e38d35a3f12e600U, 0xbe93b17f3f38b237U,
  0x3ed5bf72bc55066eU, 0x3e62185dbd1acf97U, 0x3da42304bdd14ac5U, 0xbec313253e365624U,
  0xbe868a1a3e3fee38U, 0x3dc88c253e42f62cU, 0x3ebc63553df64b97U, 0x3f191aab3c4403e2U,
  0x3e2588d4be6153d8U, 0xbf2849633dd39bbdU, 0x3d2ddff3bf4fe55aU, 0xbccc1a0e3e3a898aU,
  0x3da6c950bdc6bb6fU, 0x3e816583be3fa967U, 0xbee9d8eb3f02d006U, 0x3d1bdeffbda1c2a2U,
  0x3c7624363dbe5695U, 0x3f40eda73be2363cU, 0xbf3bc91d3e0c237fU, 0x3d0090a43d045ce9U,
  0xbcead4963e23b2aeU, 0x3dfa7354be36adeaU, 0x3f38bf403e48f54fU, 0x3da42cd0bdf34b92U,
  0xbe9058963e2b3389U, 0xbe0fb261bf1054a6U, 0x3e3e99bc3e8a2453U, 0xbe7869343e170bd1U,
  0x3e15cdb8be768b89U, 0xbe421b433d963ad4U, 0x3a9f2900be616eefU, 0xbe8d7bff3e87fa77U,
  0xbe3d0cf6be241215U, 0xbe893a383c2ea440U, 0x3dd9d7e03e3468caU, 0xbe8f7823be2bdb72U,
  0x3d3ecc38be95fcc8U, 0xbe92e8b93db291ecU, 0xbdf5e646bddf78b0U, 0x3e703976be068145U,
  0xbe03b513be85a43fU, 0x3df03fbcbc9a6820U, 0x3e3bc5023e44053eU, 0x3dd524e83e563716U,
  0x3dde8241bd1fd54fU, 0xbe545d3d3e1bd426U, 0x3ed89831be4f1d29U, 0x3f7fa60eb92c467dU,
  0xbf4482cc3c687970U, 0x3e01a4793e475c44U, 0xbe9bcd7c3ddf5cedU, 0x3e2325e53db0f9b6U,
  0xbe1b921ebe3be8eeU, 0xbe808153bf484945U, 0xbd1bf1493ed398e2U, 0xbdd2a170be3198a4U,
  0x3e9993c5bf28ed1aU, 0xbe20feb33ecf0014U, 0xbf4ab33dbe8a4555U, 0x3e391da4bf231e0aU,
  0x3e067e0bbd6ad02dU, 0x3cf7e270bdeb5adeU, 0xbc91724abed488d8U, 0x3db41296bdd71b87U,
  0x3e6dd4403e7e1608U, 0xbe9107e8bda6ba8aU, 0xbeb2b8ce3db1b28aU, 0xbf433fa8bef8955cU,
  0xbe891926bef0d57bU, 0x3e4096f73e356af5U, 0x3e81fe373f3557ccU, 0xbddd3ee1be8463a6U,
  0xbea488ba3e5baeafU, 0xbe9954dcbae7a8a6U, 0x3b98e45ebd8a0523U, 0xbce677033cbcf294U,
  0xbd4abc33U, 0xbc295db100000000U, 0x3c892aa6U, 0x3cb831c400000000U,
  0x3c39f51fU, 0x3cebeb7abbf6dc37U, 0xbcecc19dbc97c536U, 0xbd9b6135bbf18370U,
  0xbd60cc39bdd08cfdU, 0xbd1c01bfbbb9a66fU, 0xbdfda632bcd35763U, 0xbcdeb2a2U,
  0x391ed972bb200751U, 0xbdd1d43abe2563b2U, 0x3ed5d6523f20e538U, 0xbe289494bebb8df0U,
  0x3e511e203dc502d0U, 0xbe11d6b3be563e1bU, 0x3dd66309be8d5edbU, 0x3e3e9c14bcc3ed8fU,
  0x3f5be14a3d736fcdU, 0xbc257e0abdf1e3dfU, 0x3db324373e9346deU, 0xbda7a073be446c77U,
  0xbd28cb8cbd8d9fc2U, 0x3ce66d5bbd956703U, 0xbe0c72edbe934462U, 0x3d3431bbbe250184U,
  0x3efc0d123e4feb5bU, 0x3ca18c0f3f4c448fU, 0x3dc80154bf2e6c1aU, 0x3f0ba6a83c0dde00U,
  0xbd43eca03f150f64U, 0xb9a918123e860d72U, 0xbd9a07f43f228900U, 0x3f6970cbbdf80a70U,
  0xbe3b50f8bf02bcc4U, 0xbe780efdbd8b6fbaU, 0xbe20a29dbe934e98U, 0x3e9892a0bf15f1aaU,
  0x3e391d1cbe99e7deU, 0x3ccbca103f012de6U, 0xbd8ae26d3efa2d15U, 0x3e258844be9ce609U,
  0x3f1fde7ebe455568U, 0x3e748050bf0e1f19U, 0x3ef96123be35e83eU, 0x3dd82934beff74fcU,
  0xbf1f0179be003c4bU, 0xbe91f2e7be8eea1fU, 0x3eb12801be40d70fU, 0x3e83ffc03d795ee6U,
  0xbec00daebe6510ceU, 0x3e7d3c76bed370a4U, 0x3e079de7bf243087U, 0x3e52b4603d8bfafcU,
  0xbd4cfd803f4da94eU, 0xbf384f2a3e6dfb54U, 0xbf328f843e860e34U, 0xbe225adebf46ea68U,
  0xbe2f49473efa54d3U, 0xbeb63c813e25bbe0U, 0xbe7e14c4bd4568e6U, 0x3eaf60a1be6a9e38U,
  0xbe45885fbeaa277cU, 0xbf24f75b3e96b8d0U, 0x3cf45af03e1b9c90U, 0x3efb032bbe74f0e4U,
  0x3ee410b33f30a25fU, 0xbe33c18e3f4ec34eU, 0xbe04face3e8cf0dbU, 0xbe44cb40becb02f7U,
  0x3ddb7088bef6d11aU, 0x3f2525babf280780U, 0x3f77ba683c96dbdaU, 0xbd297470bf4f9dffU,
  0x3f219b5bbbadf1c0U, 0xbe6b45d6bf5e9e68U, 0xbf49fc973ddf1684U, 0x3e3d6d00beab549fU,
  0x3d56cf0cbf4f67beU, 0x3e8f517dbe1b0a90U, 0xbf1467b7be3d4f17U, 0x3e327a20bdfb5a2cU,
  0x3e4f22a6bf391475U, 0x3e2d20483c62d5c0U, 0xbea612cf3f54c1d0U, 0xbf80d3cc3e48bc9fU,
  0x3f5ea414be202853U, 0x3f0ba8f73ec920e9U, 0x3d8c01ccbf354862U, 0x3eba8789be482e99U,
  0x3ea2e3a2be690102U, 0xbf22d198be4fb502U, 0xbe114d38bd90f543U, 0x3eee7a78bf1d704cU,
  0x3ce2c63fbe9b067fU, 0xbebf7bc1be0c5d8fU, 0x3e65e7a3bebc9cc2U, 0x3e9989f1bf2ce8fcU,
  0x3e9606fc3e22c3baU, 0x3cbef8603f30b696U, 0xbf065aa03ece350dU, 0xbe79f0febd87721dU,
  0x3f2e6198bf079a5bU, 0xbcc42f403ee20a74U, 0x3ec7d7f13e1b7962U, 0xbe4870bebd597140U,
  0xbdb4d44a3d80e698U, 0x3dcbb3acbecc2297U, 0xbef2803c3edba8a7U, 0x3f729b503ef05914U,
  0x3e29bcc1be6a3298U, 0x3f2108fc3f0fd2d2U, 0xbe1272333f4b3d83U, 0x3e558af53f346915U,
  0x3e92c2a03dbe7797U, 0xbe043f49bd427c93U, 0x3ee9c7793eba1b4fU, 0xbedc37673f3695c4U,
  0xbdf18cd0bdde7f50U, 0xbe050f4e3e140ca6U, 0x3da0d9083e414eecU, 0x3e953cbe3d6c2870U,
  0x3e9b93883f2bc72fU, 0x3f2e5f573e80b05aU, 0xbf258056bf000b7aU, 0x3d8b7148bd1110f4U,
  0xbe4d1e67bf0e6e9eU, 0x3e213d0ebe6d11a5U, 0x3d8c994abf4f99beU, 0xbe0727c0bdb9f7b2U,
  0x3f35198c3db873d6U, 0xbe762d7cbe06d6bbU, 0x3f6fcd00bdf00cc8U, 0x3e156fa83f4535acU,
  0x3f303c133da938acU, 0x3e337f48bf0a27c6U, 0xbe6831e63d863b8cU, 0xbe23b809be8096deU,
  0xbea347cfbeb0b302U, 0x3fa32ee83f87f058U, 0x3e7734503e504f5cU, 0x3ee7ad683f14fa37U,
  0xbd530c563d838088U, 0x3ebde8ef3f5386b7U, 0x3d3f17403ebe10e9U, 0xbea9d282be33d4f4U,
  0x3e94f1543f082244U, 0xbe5c95543f144f41U, 0x3d7f50d8be98de58U, 0xbe481dec3e8143deU,
  0xbddc9be63e948082U, 0x3f566e73be7b5895U, 0x3e68a2603ee9f04aU, 0x3e9b79673f0479cfU,
  0xbe5c9a74bf4dea28U, 0x3e52bb35be2e4ecdU, 0x3d86891e3dff3b26U, 0x3d759b993f1bc957U,
  0xbdbbe7aebedca9e8U, 0xbeab724cbdd89aebU, 0x3f4c5e6c3d2d6778U, 0xbc8d84fa3ebc179bU,
  0xbf1045393e886b31U, 0x3df3c16cbe99db16U, 0xbdfac18f3d963c68U, 0x3e7537583f6037d1U,
  0x3f447b6abe9cb583U, 0x3e817d223f2b5f29U, 0x3e67b7203efd5815U, 0xbf44dc29bf50f73fU,
  0x3dbcf9ab3d4fea81U, 0xbe56592dbf0b7dfeU, 0x3ebc42d6bdc355bfU, 0xbe009eb8bf0cce18U,
  0xbd67e998bdccd09aU, 0x3f1d62563f0181fdU, 0xbf3f2fe93d97713aU, 0xbe051adabf3a4e9eU,
  0xbe0908493f869632U, 0xbdc7f62cbe8a38b7U, 0x3cdf0dc03e19a0c4U, 0x3ee0c4aebd62d2a8U,
  0xbcab0880becb5bc8U, 0xbf39d6d33eea4d83U, 0x3e40fc853f610851U, 0x3f25036ebe0b0919U,
  0x3f0b78093f65dd38U, 0xbea812003f88e2deU, 0x3e0fc5173f3551e3U, 0xbda3cabcbe96262fU,
  0x3e98391abdef58a8U, 0x3ec674d3bf038b56U, 0x3eeab22e3d7c1428U, 0x3eb08c80bdaa3d8aU,
  0x3f336c783dd2dc04U, 0xbe968d08bf2e96c0U, 0xbef26bd4be312748U, 0xbcbd13e0becb72a2U,
  0x3d0f5e8abf254323U, 0x3f53b5123e683291U, 0xbf3799b8bda84942U, 0x3cf267ffbe2df3bdU,
  0x3e9db4f2be20bd30U, 0x3d731b903f28b71fU, 0x3e49f6903ee84eccU, 0xbf1ae0823d7e3e78U,
  0x3d08ec393ec09fa3U, 0xbdb76a54bd8584c5U, 0x3e3ced543ec156e4U, 0xbe1d313f3e925328U,
  0x3e2794943e90bb96U, 0x3ec8c7ed3da23ad0U, 0x3eabc3823f035624U, 0xbcc6d91e3e15bc24U,
  0x3e927f1c3e82d5d6U, 0x3e371e25be6bddc7U, 0x3e9811cf3dc6a5caU, 0x3dd091903f7eef9eU,
  0xbdbf187abe2c07aaU, 0xbe66eef6be091a23U, 0x3f6f3c08be707757U, 0x3ebb348dbd9bf59bU,
  0xbd34a5d33f138e7cU, 0xbe8873f2be077f9bU, 0xbe723dc13e99ece4U, 0xbeb0fd133f2fcb88U,
  0x3eb1f8713e5b9828U, 0xbdcd620c3f1d5ecaU, 0x3ee2ee2d3d9cbdbeU, 0xbeb38a42bed4cd5cU,
  0xbe784111bea64b4cU, 0xbe3ad694be9c8af2U, 0x3d383030be9fae7bU, 0x3dcba9d4be825e5cU,
  0xbdc40008beb2a8e9U, 0x3ea19f5f3dfc008cU, 0xbe9055a03ecfdb8eU, 0xbe5dc8ae3e7df32cU,
  0xbe8614d23e8a6ab8U, 0xbe95ef983d411f68U, 0x3e9ec55a3eb0c2c7U, 0x3f7d3c8e3e4e5e1cU,
  0x3e36e4943eaae557U, 0x3e3b84523f517236U, 0x3e4efa64be04a8f4U, 0x3f218cf3be932795U,
  0x3eb65c473eb3a4f0U, 0x3e8bc4443ef46384U, 0xbc8517f2b95271e7U, 0xbe8709dfbec0b173U,
  0x3f249a913e4838b7U, 0x3f5c313abd8ed7f0U, 0x3e0bbe6c3f23e3d7U, 0xbd561c50befa0749U,
  0x3f0ec63dbe71496aU, 0x3e50a00cbe85beb3U, 0xbf2d9c143e208130U, 0x3e84cb3c3e89d97aU,
  0x3f3181d5beed58bbU, 0xbd82bbf9be608a3dU, 0xbed9b8fdbdc98efbU, 0xbcbd66b6bdb40142U,
  0x3e8c4928bf468c46U, 0x3e64288cbdd827afU, 0xbd7eb6f03ee87c7bU, 0xbe833f083e6c9509U,
  0xbef70e363dd2d6fdU, 0xbeb946803d9892efU, 0xbe1d10483f4905efU, 0xbd7ae1903e0cf1ccU,
  0xbd09ec203ef3c1d8U, 0x3f2195ee3c2c33c0U, 0x3e358ac83e95a88aU, 0xbe1f7b983f4785d1U,
  0x3e96a7b23f0b2a37U, 0x3f702bfabdbd4d47U, 0x3d8708593f44db14U, 0x3d314d463f739097U,
  0x3d099fdc3ee449a5U, 0xbda5a374be9a19c2U, 0x3f0200073e40110eU, 0x3dd7f8823e5617aeU,
  0xbddaca1e3f2b3215U, 0x3eb12e3ebf0751b5U, 0xbe051719beaaf998U, 0xbd3d1a383f42401fU,
  0x3bec14ffbe60cfd9U, 0xbe07f2ca3f523e1cU, 0x3f1037c9bba3e862U, 0xbe2c673fbebbc329U,
  0xbe07e41e3b220180U, 0xbea82935bf060496U, 0x3ebba541becd60e9U, 0x3e504276bef54c8aU,
  0x3d34fb50be5f77c1U, 0x3e646da83ebc6facU, 0xbdf045983ddff06fU, 0x3f88a268bf0a95caU,
  0xbe67e6d23ec0d963U, 0x3eefaec8bb053200U, 0xbe23ee66bee3ad26U, 0xbedfe56dbe81e9e8U,
  0x3e909d04bf23e717U, 0xbd24241b3e3fd3bdU, 0x3f6e769a3f3ece2aU, 0x3e1891c3bd91be25U,
  0x3efe4d353ea06158U, 0x3e0ad9cb3f1dcde0U, 0x3de96f863f3eab82U, 0xbe9942303e8e6487U,
  0xbedb29bcbd82878cU, 0x3ea6590b3d942e68U, 0x3e6590013e67d923U, 0x3e7ce0583ec11c67U,
  0x3e03c6483e93f8a0U, 0x3deee6653eb340feU, 0x3e22b11e3e2e146aU, 0x3d74377e3e98753aU,
  0x3d9364e53e125809U, 0x3dab1c543e9fe744U, 0x3ea7092e3e776f90U, 0x3ed0ad723e2ba079U,
  0xbf8bc8363f76086bU, 0x3f7e3e993f3b22f2U, 0xbef2976c3e61bc8aU, 0xbf8937ad3f22da08U,
  0xbf7115f2bf6ec6d5U, 0xbf38341c3f34b926U, 0xbf7dcaa5beaee13aU, 0xbf2b01743f4f00acU,
  0x3f1c553cbe046f49U, 0xbf453ff7bf2cd0ffU, 0x3fa14c59bf1f9687U, 0xbea2a8f9bf1446f0U,
  0xbf07ae653f5d2f63U, 0xbe211dd93f18e6d4U, 0x3f2b1e62bee46530U, 0x3f1e8366be42bfe4U,
  0x3eb43222bf4a0e29U, 0x3f233b0dbf572b40U, 0x3f1996ffbf2175b4U, 0x3f513eb73eb72ca5U,
  0xbe8a753dbf2325f5U, 0x3e980d27bf2714d9U, 0x3f6e0a57bf7e2643U, 0x3f362fd5becbbc6aU,
  0xbf6377153fa05757U, 0x3ec88cd9bf5867a3U, 0x3eccbe053f1e3630U, 0x3dce8e4e3e42860eU,
  0xbed0a39e3f3af16bU, 0x38cd93743db333ebU, 0xbdb716afU,
};


ai_handle g_network_weights_table[1 + 2] = {
  AI_HANDLE_PTR(AI_MAGIC_MARKER),
  AI_HANDLE_PTR(s_network_weights_array_u64),
  AI_HANDLE_PTR(AI_MAGIC_MARKER),
};

